
// This is a TensorFlow Lite model file that has been converted into a C data
// array using the tensorflow.lite.util.convert_bytes_to_c_source() function.
// This form is useful for compiling into a binary for devices that don't have a
// file system.


// We need to keep the data array aligned on some architectures.
#ifdef __has_attribute
#define HAVE_ATTRIBUTE(x) __has_attribute(x)
#else
#define HAVE_ATTRIBUTE(x) 0
#endif
#if HAVE_ATTRIBUTE(aligned) || (defined(__GNUC__) && !defined(__clang__))
#define DATA_ALIGN_ATTRIBUTE __attribute__((aligned(4)))
#else
#define DATA_ALIGN_ATTRIBUTE
#endif

const unsigned char cosine_model[] DATA_ALIGN_ATTRIBUTE = {
    0x1c, 0x00, 0x00, 0x00, 0x54, 0x46, 0x4c, 0x33, 0x14, 0x00, 0x20, 0x00, 0x1c,
    0x00, 0x18, 0x00, 0x14, 0x00, 0x10, 0x00, 0x0c, 0x00, 0x00, 0x00, 0x08, 0x00,
    0x04, 0x00, 0x14, 0x00, 0x00, 0x00, 0x1c, 0x00, 0x00, 0x00, 0x90, 0x00, 0x00,
    0x00, 0xe8, 0x00, 0x00, 0x00, 0x04, 0x07, 0x00, 0x00, 0x14, 0x07, 0x00, 0x00,
    0x0c, 0x0c, 0x00, 0x00, 0x03, 0x00, 0x00, 0x00, 0x01, 0x00, 0x00, 0x00, 0x10,
    0x00, 0x00, 0x00, 0x00, 0x00, 0x0a, 0x00, 0x10, 0x00, 0x0c, 0x00, 0x08, 0x00,
    0x04, 0x00, 0x0a, 0x00, 0x00, 0x00, 0x0c, 0x00, 0x00, 0x00, 0x1c, 0x00, 0x00,
    0x00, 0x38, 0x00, 0x00, 0x00, 0x0f, 0x00, 0x00, 0x00, 0x73, 0x65, 0x72, 0x76,
    0x69, 0x6e, 0x67, 0x5f, 0x64, 0x65, 0x66, 0x61, 0x75, 0x6c, 0x74, 0x00, 0x01,
    0x00, 0x00, 0x00, 0x04, 0x00, 0x00, 0x00, 0x98, 0xff, 0xff, 0xff, 0x09, 0x00,
    0x00, 0x00, 0x04, 0x00, 0x00, 0x00, 0x07, 0x00, 0x00, 0x00, 0x64, 0x65, 0x6e,
    0x73, 0x65, 0x5f, 0x32, 0x00, 0x01, 0x00, 0x00, 0x00, 0x04, 0x00, 0x00, 0x00,
    0xc6, 0xf9, 0xff, 0xff, 0x04, 0x00, 0x00, 0x00, 0x0b, 0x00, 0x00, 0x00, 0x64,
    0x65, 0x6e, 0x73, 0x65, 0x5f, 0x69, 0x6e, 0x70, 0x75, 0x74, 0x00, 0x02, 0x00,
    0x00, 0x00, 0x34, 0x00, 0x00, 0x00, 0x04, 0x00, 0x00, 0x00, 0xdc, 0xff, 0xff,
    0xff, 0x0c, 0x00, 0x00, 0x00, 0x04, 0x00, 0x00, 0x00, 0x13, 0x00, 0x00, 0x00,
    0x43, 0x4f, 0x4e, 0x56, 0x45, 0x52, 0x53, 0x49, 0x4f, 0x4e, 0x5f, 0x4d, 0x45,
    0x54, 0x41, 0x44, 0x41, 0x54, 0x41, 0x00, 0x08, 0x00, 0x0c, 0x00, 0x08, 0x00,
    0x04, 0x00, 0x08, 0x00, 0x00, 0x00, 0x0b, 0x00, 0x00, 0x00, 0x04, 0x00, 0x00,
    0x00, 0x13, 0x00, 0x00, 0x00, 0x6d, 0x69, 0x6e, 0x5f, 0x72, 0x75, 0x6e, 0x74,
    0x69, 0x6d, 0x65, 0x5f, 0x76, 0x65, 0x72, 0x73, 0x69, 0x6f, 0x6e, 0x00, 0x0d,
    0x00, 0x00, 0x00, 0x18, 0x06, 0x00, 0x00, 0x10, 0x06, 0x00, 0x00, 0xc0, 0x05,
    0x00, 0x00, 0xa4, 0x05, 0x00, 0x00, 0x54, 0x05, 0x00, 0x00, 0x04, 0x05, 0x00,
    0x00, 0xf4, 0x00, 0x00, 0x00, 0xa4, 0x00, 0x00, 0x00, 0x9c, 0x00, 0x00, 0x00,
    0x94, 0x00, 0x00, 0x00, 0x8c, 0x00, 0x00, 0x00, 0x6c, 0x00, 0x00, 0x00, 0x04,
    0x00, 0x00, 0x00, 0x72, 0xfa, 0xff, 0xff, 0x04, 0x00, 0x00, 0x00, 0x58, 0x00,
    0x00, 0x00, 0x0c, 0x00, 0x00, 0x00, 0x08, 0x00, 0x0e, 0x00, 0x08, 0x00, 0x04,
    0x00, 0x08, 0x00, 0x00, 0x00, 0x10, 0x00, 0x00, 0x00, 0x28, 0x00, 0x00, 0x00,
    0x00, 0x00, 0x06, 0x00, 0x08, 0x00, 0x04, 0x00, 0x06, 0x00, 0x00, 0x00, 0x04,
    0x00, 0x00, 0x00, 0x01, 0x00, 0x00, 0x00, 0xea, 0x03, 0x00, 0x00, 0x00, 0x00,
    0x0a, 0x00, 0x10, 0x00, 0x0c, 0x00, 0x08, 0x00, 0x04, 0x00, 0x0a, 0x00, 0x00,
    0x00, 0x02, 0x00, 0x00, 0x00, 0x02, 0x00, 0x00, 0x00, 0x04, 0x00, 0x00, 0x00,
    0x06, 0x00, 0x00, 0x00, 0x32, 0x2e, 0x31, 0x33, 0x2e, 0x30, 0x00, 0x00, 0xd6,
    0xfa, 0xff, 0xff, 0x04, 0x00, 0x00, 0x00, 0x10, 0x00, 0x00, 0x00, 0x31, 0x2e,
    0x35, 0x2e, 0x30, 0x00, 0x00, 0x00, 0x00, 0x00, 0x00, 0x00, 0x00, 0x00, 0x00,
    0x00, 0xc0, 0xf5, 0xff, 0xff, 0xc4, 0xf5, 0xff, 0xff, 0xc8, 0xf5, 0xff, 0xff,
    0xfe, 0xfa, 0xff, 0xff, 0x04, 0x00, 0x00, 0x00, 0x40, 0x00, 0x00, 0x00, 0xf3,
    0x2d, 0x4f, 0xbf, 0x7c, 0x65, 0x6f, 0xbe, 0xec, 0x09, 0x78, 0x3e, 0xc7, 0x43,
    0x8e, 0xbe, 0xc2, 0xba, 0xf0, 0x3e, 0x6a, 0x33, 0x8a, 0x3e, 0x13, 0x63, 0x1c,
    0x3e, 0x17, 0xa8, 0x87, 0x3f, 0x2e, 0xe4, 0x9c, 0xbe, 0x4c, 0x06, 0x82, 0x3c,
    0x31, 0xd8, 0xb3, 0x3f, 0x00, 0x53, 0x04, 0xbf, 0x2c, 0xaf, 0xe8, 0xbe, 0xdc,
    0xed, 0x17, 0x3e, 0x77, 0x81, 0x15, 0x3f, 0x06, 0x28, 0x47, 0xbf, 0x4a, 0xfb,
    0xff, 0xff, 0x04, 0x00, 0x00, 0x00, 0x00, 0x04, 0x00, 0x00, 0x60, 0x40, 0x18,
    0xbc, 0xaa, 0x4c, 0x88, 0xbe, 0x8b, 0xd0, 0xb9, 0xbe, 0xec, 0x85, 0xc5, 0xbd,
    0x7a, 0xb0, 0xca, 0x3e, 0xcc, 0xe5, 0xc7, 0x3e, 0x90, 0x7e, 0xb1, 0xbe, 0x92,
    0x09, 0x39, 0xbd, 0xcd, 0x55, 0xd4, 0xbe, 0x4a, 0xd3, 0x95, 0xbe, 0xc7, 0xba,
    0xc3, 0x3e, 0x00, 0x5e, 0x11, 0xbc, 0xf0, 0x50, 0x48, 0xbd, 0x85, 0x17, 0xc8,
    0x3e, 0x26, 0x75, 0x0a, 0x3e, 0x33, 0x6a, 0x12, 0x3d, 0xbf, 0xbf, 0xb8, 0x3e,
    0x1d, 0x77, 0x83, 0x3e, 0xd9, 0x2c, 0xad, 0x3d, 0x78, 0x40, 0x26, 0xbe, 0x0d,
    0x9c, 0xbe, 0xbe, 0xfe, 0x5a, 0xca, 0x3d, 0x5f, 0xc0, 0x3a, 0x3e, 0xde, 0x93,
    0x89, 0x3c, 0x6c, 0xa7, 0xa0, 0x3d, 0x55, 0x40, 0xa6, 0x3e, 0x10, 0x62, 0xf7,
    0xbd, 0x90, 0x45, 0x9f, 0xbd, 0x1e, 0x1e, 0xa8, 0xbe, 0xf4, 0x18, 0xc8, 0xbe,
    0xff, 0xad, 0x60, 0xbe, 0x83, 0x59, 0xde, 0xbe, 0x4c, 0x4e, 0x89, 0x3d, 0xa0,
    0xeb, 0xd9, 0xbd, 0x52, 0x78, 0xb6, 0x3e, 0x9e, 0x24, 0x54, 0x3e, 0x87, 0x5a,
    0x7a, 0x3d, 0x0e, 0x88, 0x88, 0x3e, 0x40, 0xf5, 0x02, 0x3d, 0x14, 0xd9, 0x09,
    0x3c, 0xda, 0x9f, 0x8f, 0xbe, 0x43, 0x18, 0x9e, 0x3e, 0xe4, 0x4c, 0xa1, 0xbe,
    0x82, 0xf1, 0x5e, 0x3e, 0x80, 0x77, 0xd6, 0xbb, 0x17, 0x84, 0x83, 0xbe, 0xa0,
    0x6f, 0x99, 0xbe, 0xc0, 0xa0, 0x96, 0x3e, 0x00, 0xf9, 0xe9, 0x3b, 0xd1, 0x6a,
    0x8e, 0xbe, 0xf8, 0x55, 0xe9, 0x3d, 0x4c, 0x6d, 0xd5, 0xbe, 0xf2, 0xd5, 0x92,
    0x3e, 0x55, 0xaa, 0x2d, 0x3e, 0x5f, 0xda, 0xaf, 0xbc, 0x7b, 0x51, 0x2b, 0xbe,
    0xd2, 0xd8, 0x25, 0x3e, 0x82, 0xca, 0x30, 0x3e, 0xdc, 0xf7, 0xf6, 0x3d, 0x34,
    0x10, 0xc8, 0x3d, 0xc0, 0xca, 0x6c, 0xbc, 0x0f, 0x0c, 0xa9, 0xbe, 0xbc, 0x54,
    0x23, 0xbe, 0xcf, 0xfb, 0xb0, 0x3e, 0xc0, 0x9a, 0x36, 0xbe, 0x1d, 0xd2, 0x51,
    0xbe, 0x83, 0xb7, 0xce, 0x3e, 0x94, 0x5f, 0xd5, 0xbe, 0x0b, 0x69, 0x85, 0xbe,
    0xa3, 0xd5, 0x05, 0xbe, 0x84, 0xff, 0x74, 0xbe, 0xb8, 0xc9, 0xc2, 0x3e, 0xb1,
    0x88, 0xc9, 0x3e, 0x18, 0x75, 0xcb, 0xbd, 0x90, 0xe8, 0xa9, 0xbd, 0x2a, 0x33,
    0x69, 0xbe, 0x6e, 0x42, 0x3f, 0x3e, 0xa9, 0xb6, 0xc2, 0x3e, 0xf8, 0x6d, 0x2c,
    0x3d, 0x75, 0x3b, 0x1e, 0x3e, 0xf9, 0xcc, 0x98, 0x3e, 0x8a, 0x8b, 0xc5, 0xbe,
    0xbd, 0x67, 0x8b, 0x3d, 0x7a, 0xb4, 0x2b, 0x3e, 0x6f, 0x1d, 0xa4, 0x3d, 0x4a,
    0xbf, 0x99, 0x3e, 0x13, 0x81, 0xb2, 0x3e, 0x91, 0x9d, 0xde, 0x3e, 0xef, 0x94,
    0xae, 0x3e, 0x38, 0x32, 0x05, 0xbd, 0x8a, 0x61, 0x4d, 0xbe, 0x5e, 0x4d, 0x6f,
    0x3e, 0x7f, 0x17, 0x85, 0xbe, 0xd4, 0xab, 0xe5, 0x3d, 0x60, 0x42, 0x2d, 0x3c,
    0x10, 0xd0, 0xc5, 0x3e, 0x58, 0xdd, 0x1d, 0xbe, 0xcf, 0x0b, 0xd6, 0x3e, 0x92,
    0x25, 0x30, 0x3e, 0x3f, 0x71, 0xb6, 0x3e, 0x83, 0x59, 0xc4, 0x3d, 0x1f, 0x38,
    0xd7, 0xbe, 0x19, 0x59, 0x5b, 0x3d, 0xaf, 0x0f, 0x41, 0x3e, 0x1e, 0x96, 0x13,
    0x3e, 0xb4, 0x7f, 0xd7, 0x3d, 0x28, 0xb9, 0xc1, 0xbd, 0x86, 0xeb, 0x9a, 0xbe,
    0x34, 0x3c, 0x35, 0xbe, 0xec, 0xfe, 0x94, 0xbe, 0x16, 0xa9, 0x10, 0x3e, 0x26,
    0xf4, 0xb0, 0xbd, 0x69, 0xed, 0x9e, 0x3e, 0x58, 0x06, 0x0e, 0xbe, 0x22, 0x56,
    0xdf, 0x3e, 0xea, 0xb4, 0x13, 0xbe, 0xe6, 0x5d, 0x94, 0xbe, 0x92, 0xe9, 0x66,
    0xbe, 0xf5, 0x78, 0x07, 0x3f, 0xda, 0xaa, 0x88, 0x3e, 0x74, 0xbf, 0xf6, 0x3d,
    0x57, 0x10, 0xa0, 0x3e, 0x8d, 0xfb, 0xb2, 0xbe, 0xc7, 0xc9, 0x8b, 0x3e, 0x5b,
    0x40, 0xc8, 0x3e, 0xf6, 0xb3, 0x00, 0xbe, 0x14, 0xe8, 0xb7, 0x3d, 0xe5, 0xeb,
    0x90, 0xbe, 0x2e, 0x51, 0x6b, 0x3e, 0x03, 0x0d, 0x41, 0xbe, 0x5d, 0x59, 0x38,
    0xbe, 0x96, 0xf3, 0x1e, 0x3e, 0x6e, 0x6c, 0x73, 0x3d, 0x37, 0x01, 0x38, 0xbe,
    0xcd, 0x4f, 0xa5, 0x3e, 0x97, 0x23, 0xa4, 0x3c, 0x60, 0xca, 0x0d, 0xbe, 0x32,
    0x9a, 0x2e, 0xbe, 0x08, 0xc5, 0x22, 0xbd, 0x3a, 0x83, 0x29, 0x3e, 0x30, 0x69,
    0xc9, 0xbe, 0x32, 0x20, 0x00, 0xbe, 0xa2, 0xec, 0x5e, 0x3e, 0x3b, 0x38, 0x30,
    0x3e, 0x91, 0x71, 0xdb, 0xbe, 0x24, 0xda, 0x84, 0xbe, 0x46, 0xc7, 0x74, 0x3e,
    0x3d, 0xa0, 0xb0, 0x3e, 0xa0, 0xc6, 0x2e, 0xbc, 0xe7, 0x87, 0x8e, 0xb9, 0xf4,
    0xf8, 0xbe, 0x3d, 0x75, 0x05, 0x6d, 0xbd, 0xbe, 0x96, 0x36, 0x3e, 0xb6, 0x7e,
    0x47, 0x3e, 0x64, 0x5a, 0xe1, 0xbd, 0x46, 0x06, 0x2d, 0xbe, 0x13, 0xd4, 0xbe,
    0x3e, 0xa0, 0x89, 0x51, 0x3d, 0x64, 0xc6, 0x1e, 0xbe, 0x7c, 0x27, 0x7e, 0xbe,
    0x00, 0xfb, 0x5b, 0xbc, 0xe0, 0xa8, 0x1f, 0x3c, 0xf9, 0x63, 0xf6, 0xbe, 0xcd,
    0x6b, 0xc7, 0x3e, 0xc9, 0xca, 0xe4, 0x3e, 0x3c, 0x17, 0x1a, 0x3f, 0xcf, 0xa8,
    0x4f, 0xbf, 0xbc, 0x28, 0x5a, 0xbe, 0x9a, 0xcf, 0x60, 0x3e, 0xa4, 0xd0, 0x98,
    0xbd, 0xf0, 0x74, 0x93, 0x3c, 0xd0, 0x11, 0x87, 0xbc, 0xcf, 0x89, 0xc6, 0x3e,
    0xf6, 0x09, 0x03, 0x3e, 0x37, 0x41, 0xc6, 0xbe, 0xb7, 0x23, 0x36, 0xbf, 0xb3,
    0x31, 0x73, 0xbe, 0xc0, 0xad, 0xc0, 0x3c, 0xd3, 0x64, 0xc3, 0x3d, 0x40, 0xbd,
    0x5e, 0xbc, 0x2b, 0x11, 0xb9, 0x3e, 0x75, 0x0c, 0xce, 0x3e, 0x75, 0x85, 0x3c,
    0xbd, 0x30, 0x7e, 0x5e, 0x3e, 0x74, 0x00, 0xc9, 0x3d, 0x42, 0x97, 0x26, 0xbe,
    0x5c, 0xbc, 0xb0, 0xbe, 0x49, 0xec, 0xbc, 0x3e, 0x36, 0x4d, 0x20, 0x3e, 0x92,
    0xab, 0x28, 0x3e, 0x62, 0x63, 0x36, 0xbe, 0x5a, 0x2f, 0xc5, 0x3e, 0x12, 0xa8,
    0x35, 0x3e, 0x70, 0x87, 0xf3, 0x3c, 0xc9, 0xbc, 0x08, 0x3e, 0x5c, 0xd8, 0xae,
    0xbd, 0xad, 0x27, 0x74, 0xbe, 0x70, 0x0a, 0xb5, 0x3c, 0x73, 0x10, 0x05, 0x3e,
    0x1b, 0x38, 0x72, 0xbe, 0x78, 0x2a, 0x34, 0x3d, 0x8b, 0xab, 0xd5, 0xbe, 0xa0,
    0xcf, 0x53, 0xbc, 0xc6, 0x82, 0x12, 0xbe, 0x62, 0x39, 0x76, 0x3e, 0x7b, 0x91,
    0xab, 0x3e, 0x00, 0x31, 0x37, 0x3b, 0x30, 0x67, 0x17, 0xbd, 0xd2, 0xae, 0xc8,
    0xbe, 0x92, 0x88, 0x76, 0x3e, 0x14, 0x08, 0xa0, 0x3e, 0x19, 0x88, 0xa7, 0x3e,
    0x61, 0xec, 0x08, 0xba, 0xa5, 0x69, 0x3b, 0xbe, 0xf7, 0x7c, 0x68, 0xbe, 0x70,
    0xeb, 0xc2, 0x3e, 0x14, 0x82, 0x76, 0xbe, 0xca, 0x53, 0x5b, 0x3e, 0xa3, 0x10,
    0xb4, 0x3e, 0x88, 0x2b, 0xa5, 0xbd, 0x10, 0x4b, 0xb3, 0xbe, 0xb6, 0x9c, 0x14,
    0x3e, 0xe2, 0x23, 0x16, 0xbe, 0xd9, 0x13, 0xdd, 0x3e, 0x60, 0x2e, 0xba, 0xbc,
    0x4f, 0xa7, 0xc1, 0x3e, 0x69, 0x35, 0x93, 0x3e, 0xd9, 0x12, 0x3f, 0xbe, 0x23,
    0x82, 0xb8, 0xbe, 0xb6, 0x2c, 0x21, 0x3c, 0x17, 0xae, 0x02, 0x3f, 0xa4, 0xaa,
    0x29, 0x3e, 0xbc, 0x62, 0xd0, 0xbd, 0xd0, 0x7e, 0x90, 0xbe, 0x2d, 0x65, 0x69,
    0xbe, 0x30, 0xc9, 0x13, 0xbd, 0xe4, 0x53, 0xe3, 0x3d, 0x70, 0x5d, 0xa8, 0xbd,
    0x64, 0xf2, 0x89, 0xbe, 0x71, 0x3e, 0x50, 0x3e, 0x19, 0xbe, 0xae, 0x3e, 0x1a,
    0xb2, 0x0f, 0x3e, 0xb0, 0x8f, 0xb9, 0xbe, 0x0a, 0xf8, 0x25, 0x3e, 0x65, 0x90,
    0xfb, 0x3d, 0xa1, 0xbf, 0x0d, 0x3e, 0x28, 0x18, 0xb2, 0xbe, 0xbe, 0xbc, 0x89,
    0x3e, 0xff, 0x34, 0xa7, 0x3e, 0xad, 0x31, 0x8f, 0x3e, 0xe1, 0x6b, 0xbb, 0x3e,
    0x95, 0xd6, 0xdb, 0x3e, 0x92, 0x73, 0x0b, 0xbe, 0x18, 0x45, 0x02, 0xbe, 0x2e,
    0x54, 0x01, 0xbe, 0xf7, 0x3e, 0x24, 0x3e, 0x56, 0xff, 0xff, 0xff, 0x04, 0x00,
    0x00, 0x00, 0x40, 0x00, 0x00, 0x00, 0x3b, 0x26, 0xe6, 0xbe, 0x18, 0x49, 0xea,
    0xbd, 0x5a, 0x69, 0xe3, 0x3e, 0x17, 0x31, 0x0a, 0xbf, 0xed, 0x6b, 0xb3, 0x3e,
    0x4c, 0x70, 0x88, 0x3e, 0xfe, 0xfa, 0x05, 0x3f, 0x30, 0x06, 0x0e, 0x3f, 0xbd,
    0xa0, 0x8e, 0xbe, 0xb0, 0xb7, 0x02, 0xbd, 0x8a, 0xf4, 0xf8, 0xbe, 0x30, 0x9f,
    0x81, 0xbe, 0xe0, 0x04, 0xad, 0xbd, 0x00, 0x7c, 0x04, 0xba, 0xfc, 0x55, 0xde,
    0xbd, 0x63, 0x9e, 0xc7, 0x3e, 0xa2, 0xff, 0xff, 0xff, 0x04, 0x00, 0x00, 0x00,
    0x40, 0x00, 0x00, 0x00, 0x00, 0x00, 0x00, 0x00, 0x00, 0x00, 0x00, 0x00, 0x4a,
    0xc4, 0xef, 0xbe, 0x00, 0x00, 0x00, 0x00, 0xc4, 0x25, 0xcf, 0x3e, 0x8a, 0xfb,
    0x22, 0x3f, 0x94, 0x68, 0xfb, 0xbe, 0x75, 0xd0, 0xb0, 0xbe, 0x00, 0x00, 0x00,
    0x00, 0x00, 0x00, 0x00, 0x00, 0x00, 0x00, 0x00, 0x00, 0x00, 0x00, 0x00, 0x00,
    0x00, 0x00, 0x00, 0x00, 0x00, 0x00, 0x00, 0x00, 0x00, 0x00, 0x00, 0x00, 0x4f,
    0x9d, 0x79, 0xbd, 0xee, 0xff, 0xff, 0xff, 0x04, 0x00, 0x00, 0x00, 0x04, 0x00,
    0x00, 0x00, 0xdc, 0xa2, 0xae, 0xbd, 0x00, 0x00, 0x06, 0x00, 0x08, 0x00, 0x04,
    0x00, 0x06, 0x00, 0x00, 0x00, 0x04, 0x00, 0x00, 0x00, 0x40, 0x00, 0x00, 0x00,
    0xec, 0xc2, 0xde, 0x3d, 0x66, 0x49, 0x30, 0xbc, 0x1c, 0x6a, 0xbb, 0xbd, 0xc3,
    0x2a, 0xac, 0x3d, 0xd4, 0x01, 0xb4, 0xbe, 0x37, 0x1a, 0xbc, 0xbd, 0xf0, 0x8f,
    0xe8, 0x3c, 0x9a, 0x7a, 0xf6, 0xbe, 0x8d, 0xa2, 0xea, 0x3d, 0x13, 0x25, 0xc1,
    0x3d, 0x80, 0x96, 0x56, 0x3f, 0x2c, 0x30, 0xab, 0x3d, 0xd7, 0x9b, 0xa7, 0xbb,
    0x3d, 0x31, 0xae, 0xbe, 0x04, 0x33, 0xbf, 0xbe, 0x1b, 0x80, 0xc8, 0x3d, 0x20,
    0xfb, 0xff, 0xff, 0x24, 0xfb, 0xff, 0xff, 0x0f, 0x00, 0x00, 0x00, 0x4d, 0x4c,
    0x49, 0x52, 0x20, 0x43, 0x6f, 0x6e, 0x76, 0x65, 0x72, 0x74, 0x65, 0x64, 0x2e,
    0x00, 0x01, 0x00, 0x00, 0x00, 0x14, 0x00, 0x00, 0x00, 0x00, 0x00, 0x0e, 0x00,
    0x18, 0x00, 0x14, 0x00, 0x10, 0x00, 0x0c, 0x00, 0x08, 0x00, 0x04, 0x00, 0x0e,
    0x00, 0x00, 0x00, 0x14, 0x00, 0x00, 0x00, 0x1c, 0x00, 0x00, 0x00, 0xd8, 0x00,
    0x00, 0x00, 0xdc, 0x00, 0x00, 0x00, 0xe0, 0x00, 0x00, 0x00, 0x04, 0x00, 0x00,
    0x00, 0x6d, 0x61, 0x69, 0x6e, 0x00, 0x00, 0x00, 0x00, 0x03, 0x00, 0x00, 0x00,
    0x80, 0x00, 0x00, 0x00, 0x38, 0x00, 0x00, 0x00, 0x04, 0x00, 0x00, 0x00, 0x9a,
    0xff, 0xff, 0xff, 0x10, 0x00, 0x00, 0x00, 0x00, 0x00, 0x00, 0x08, 0x0c, 0x00,
    0x00, 0x00, 0x10, 0x00, 0x00, 0x00, 0x9c, 0xfb, 0xff, 0xff, 0x01, 0x00, 0x00,
    0x00, 0x09, 0x00, 0x00, 0x00, 0x03, 0x00, 0x00, 0x00, 0x08, 0x00, 0x00, 0x00,
    0x06, 0x00, 0x00, 0x00, 0x02, 0x00, 0x00, 0x00, 0xca, 0xff, 0xff, 0xff, 0x10,
    0x00, 0x00, 0x00, 0x00, 0x00, 0x00, 0x08, 0x10, 0x00, 0x00, 0x00, 0x14, 0x00,
    0x00, 0x00, 0xba, 0xff, 0xff, 0xff, 0x00, 0x00, 0x00, 0x01, 0x01, 0x00, 0x00,
    0x00, 0x08, 0x00, 0x00, 0x00, 0x03, 0x00, 0x00, 0x00, 0x07, 0x00, 0x00, 0x00,
    0x05, 0x00, 0x00, 0x00, 0x01, 0x00, 0x00, 0x00, 0x00, 0x00, 0x0e, 0x00, 0x16,
    0x00, 0x00, 0x00, 0x10, 0x00, 0x0c, 0x00, 0x0b, 0x00, 0x04, 0x00, 0x0e, 0x00,
    0x00, 0x00, 0x18, 0x00, 0x00, 0x00, 0x00, 0x00, 0x00, 0x08, 0x18, 0x00, 0x00,
    0x00, 0x1c, 0x00, 0x00, 0x00, 0x00, 0x00, 0x06, 0x00, 0x08, 0x00, 0x07, 0x00,
    0x06, 0x00, 0x00, 0x00, 0x00, 0x00, 0x00, 0x01, 0x01, 0x00, 0x00, 0x00, 0x07,
    0x00, 0x00, 0x00, 0x03, 0x00, 0x00, 0x00, 0x00, 0x00, 0x00, 0x00, 0x04, 0x00,
    0x00, 0x00, 0x03, 0x00, 0x00, 0x00, 0x01, 0x00, 0x00, 0x00, 0x09, 0x00, 0x00,
    0x00, 0x01, 0x00, 0x00, 0x00, 0x00, 0x00, 0x00, 0x00, 0x0a, 0x00, 0x00, 0x00,
    0x8c, 0x03, 0x00, 0x00, 0x1c, 0x03, 0x00, 0x00, 0xac, 0x02, 0x00, 0x00, 0x58,
    0x02, 0x00, 0x00, 0x10, 0x02, 0x00, 0x00, 0xc4, 0x01, 0x00, 0x00, 0x78, 0x01,
    0x00, 0x00, 0xf0, 0x00, 0x00, 0x00, 0x60, 0x00, 0x00, 0x00, 0x04, 0x00, 0x00,
    0x00, 0xb2, 0xfc, 0xff, 0xff, 0x00, 0x00, 0x00, 0x01, 0x14, 0x00, 0x00, 0x00,
    0x1c, 0x00, 0x00, 0x00, 0x1c, 0x00, 0x00, 0x00, 0x0a, 0x00, 0x00, 0x00, 0x34,
    0x00, 0x00, 0x00, 0x02, 0x00, 0x00, 0x00, 0xff, 0xff, 0xff, 0xff, 0x01, 0x00,
    0x00, 0x00, 0x9c, 0xfc, 0xff, 0xff, 0x19, 0x00, 0x00, 0x00, 0x53, 0x74, 0x61,
    0x74, 0x65, 0x66, 0x75, 0x6c, 0x50, 0x61, 0x72, 0x74, 0x69, 0x74, 0x69, 0x6f,
    0x6e, 0x65, 0x64, 0x43, 0x61, 0x6c, 0x6c, 0x3a, 0x30, 0x00, 0x00, 0x00, 0x02,
    0x00, 0x00, 0x00, 0x01, 0x00, 0x00, 0x00, 0x01, 0x00, 0x00, 0x00, 0x0a, 0xfd,
    0xff, 0xff, 0x00, 0x00, 0x00, 0x01, 0x14, 0x00, 0x00, 0x00, 0x1c, 0x00, 0x00,
    0x00, 0x1c, 0x00, 0x00, 0x00, 0x09, 0x00, 0x00, 0x00, 0x68, 0x00, 0x00, 0x00,
    0x02, 0x00, 0x00, 0x00, 0xff, 0xff, 0xff, 0xff, 0x10, 0x00, 0x00, 0x00, 0xf4,
    0xfc, 0xff, 0xff, 0x4c, 0x00, 0x00, 0x00, 0x73, 0x65, 0x71, 0x75, 0x65, 0x6e,
    0x74, 0x69, 0x61, 0x6c, 0x2f, 0x64, 0x65, 0x6e, 0x73, 0x65, 0x5f, 0x31, 0x2f,
    0x4d, 0x61, 0x74, 0x4d, 0x75, 0x6c, 0x3b, 0x73, 0x65, 0x71, 0x75, 0x65, 0x6e,
    0x74, 0x69, 0x61, 0x6c, 0x2f, 0x64, 0x65, 0x6e, 0x73, 0x65, 0x5f, 0x31, 0x2f,
    0x52, 0x65, 0x6c, 0x75, 0x3b, 0x73, 0x65, 0x71, 0x75, 0x65, 0x6e, 0x74, 0x69,
    0x61, 0x6c, 0x2f, 0x64, 0x65, 0x6e, 0x73, 0x65, 0x5f, 0x31, 0x2f, 0x42, 0x69,
    0x61, 0x73, 0x41, 0x64, 0x64, 0x00, 0x00, 0x00, 0x00, 0x02, 0x00, 0x00, 0x00,
    0x01, 0x00, 0x00, 0x00, 0x10, 0x00, 0x00, 0x00, 0x96, 0xfd, 0xff, 0xff, 0x00,
    0x00, 0x00, 0x01, 0x14, 0x00, 0x00, 0x00, 0x1c, 0x00, 0x00, 0x00, 0x1c, 0x00,
    0x00, 0x00, 0x08, 0x00, 0x00, 0x00, 0x60, 0x00, 0x00, 0x00, 0x02, 0x00, 0x00,
    0x00, 0xff, 0xff, 0xff, 0xff, 0x10, 0x00, 0x00, 0x00, 0x80, 0xfd, 0xff, 0xff,
    0x46, 0x00, 0x00, 0x00, 0x73, 0x65, 0x71, 0x75, 0x65, 0x6e, 0x74, 0x69, 0x61,
    0x6c, 0x2f, 0x64, 0x65, 0x6e, 0x73, 0x65, 0x2f, 0x4d, 0x61, 0x74, 0x4d, 0x75,
    0x6c, 0x3b, 0x73, 0x65, 0x71, 0x75, 0x65, 0x6e, 0x74, 0x69, 0x61, 0x6c, 0x2f,
    0x64, 0x65, 0x6e, 0x73, 0x65, 0x2f, 0x52, 0x65, 0x6c, 0x75, 0x3b, 0x73, 0x65,
    0x71, 0x75, 0x65, 0x6e, 0x74, 0x69, 0x61, 0x6c, 0x2f, 0x64, 0x65, 0x6e, 0x73,
    0x65, 0x2f, 0x42, 0x69, 0x61, 0x73, 0x41, 0x64, 0x64, 0x00, 0x00, 0x02, 0x00,
    0x00, 0x00, 0x01, 0x00, 0x00, 0x00, 0x10, 0x00, 0x00, 0x00, 0x86, 0xfe, 0xff,
    0xff, 0x00, 0x00, 0x00, 0x01, 0x10, 0x00, 0x00, 0x00, 0x10, 0x00, 0x00, 0x00,
    0x07, 0x00, 0x00, 0x00, 0x28, 0x00, 0x00, 0x00, 0xf4, 0xfd, 0xff, 0xff, 0x19,
    0x00, 0x00, 0x00, 0x73, 0x65, 0x71, 0x75, 0x65, 0x6e, 0x74, 0x69, 0x61, 0x6c,
    0x2f, 0x64, 0x65, 0x6e, 0x73, 0x65, 0x5f, 0x32, 0x2f, 0x4d, 0x61, 0x74, 0x4d,
    0x75, 0x6c, 0x00, 0x00, 0x00, 0x02, 0x00, 0x00, 0x00, 0x01, 0x00, 0x00, 0x00,
    0x10, 0x00, 0x00, 0x00, 0xce, 0xfe, 0xff, 0xff, 0x00, 0x00, 0x00, 0x01, 0x10,
    0x00, 0x00, 0x00, 0x10, 0x00, 0x00, 0x00, 0x06, 0x00, 0x00, 0x00, 0x28, 0x00,
    0x00, 0x00, 0x3c, 0xfe, 0xff, 0xff, 0x19, 0x00, 0x00, 0x00, 0x73, 0x65, 0x71,
    0x75, 0x65, 0x6e, 0x74, 0x69, 0x61, 0x6c, 0x2f, 0x64, 0x65, 0x6e, 0x73, 0x65,
    0x5f, 0x31, 0x2f, 0x4d, 0x61, 0x74, 0x4d, 0x75, 0x6c, 0x00, 0x00, 0x00, 0x02,
    0x00, 0x00, 0x00, 0x10, 0x00, 0x00, 0x00, 0x10, 0x00, 0x00, 0x00, 0x16, 0xff,
    0xff, 0xff, 0x00, 0x00, 0x00, 0x01, 0x10, 0x00, 0x00, 0x00, 0x10, 0x00, 0x00,
    0x00, 0x05, 0x00, 0x00, 0x00, 0x24, 0x00, 0x00, 0x00, 0x84, 0xfe, 0xff, 0xff,
    0x17, 0x00, 0x00, 0x00, 0x73, 0x65, 0x71, 0x75, 0x65, 0x6e, 0x74, 0x69, 0x61,
    0x6c, 0x2f, 0x64, 0x65, 0x6e, 0x73, 0x65, 0x2f, 0x4d, 0x61, 0x74, 0x4d, 0x75,
    0x6c, 0x00, 0x02, 0x00, 0x00, 0x00, 0x10, 0x00, 0x00, 0x00, 0x01, 0x00, 0x00,
    0x00, 0x5a, 0xff, 0xff, 0xff, 0x00, 0x00, 0x00, 0x01, 0x10, 0x00, 0x00, 0x00,
    0x10, 0x00, 0x00, 0x00, 0x04, 0x00, 0x00, 0x00, 0x34, 0x00, 0x00, 0x00, 0xc8,
    0xfe, 0xff, 0xff, 0x27, 0x00, 0x00, 0x00, 0x73, 0x65, 0x71, 0x75, 0x65, 0x6e,
    0x74, 0x69, 0x61, 0x6c, 0x2f, 0x64, 0x65, 0x6e, 0x73, 0x65, 0x2f, 0x42, 0x69,
    0x61, 0x73, 0x41, 0x64, 0x64, 0x2f, 0x52, 0x65, 0x61, 0x64, 0x56, 0x61, 0x72,
    0x69, 0x61, 0x62, 0x6c, 0x65, 0x4f, 0x70, 0x00, 0x01, 0x00, 0x00, 0x00, 0x10,
    0x00, 0x00, 0x00, 0xaa, 0xff, 0xff, 0xff, 0x00, 0x00, 0x00, 0x01, 0x10, 0x00,
    0x00, 0x00, 0x10, 0x00, 0x00, 0x00, 0x03, 0x00, 0x00, 0x00, 0x38, 0x00, 0x00,
    0x00, 0x18, 0xff, 0xff, 0xff, 0x29, 0x00, 0x00, 0x00, 0x73, 0x65, 0x71, 0x75,
    0x65, 0x6e, 0x74, 0x69, 0x61, 0x6c, 0x2f, 0x64, 0x65, 0x6e, 0x73, 0x65, 0x5f,
    0x32, 0x2f, 0x42, 0x69, 0x61, 0x73, 0x41, 0x64, 0x64, 0x2f, 0x52, 0x65, 0x61,
    0x64, 0x56, 0x61, 0x72, 0x69, 0x61, 0x62, 0x6c, 0x65, 0x4f, 0x70, 0x00, 0x00,
    0x00, 0x01, 0x00, 0x00, 0x00, 0x01, 0x00, 0x00, 0x00, 0x00, 0x00, 0x16, 0x00,
    0x18, 0x00, 0x14, 0x00, 0x00, 0x00, 0x10, 0x00, 0x0c, 0x00, 0x08, 0x00, 0x00,
    0x00, 0x00, 0x00, 0x00, 0x00, 0x07, 0x00, 0x16, 0x00, 0x00, 0x00, 0x00, 0x00,
    0x00, 0x01, 0x10, 0x00, 0x00, 0x00, 0x10, 0x00, 0x00, 0x00, 0x02, 0x00, 0x00,
    0x00, 0x38, 0x00, 0x00, 0x00, 0x84, 0xff, 0xff, 0xff, 0x29, 0x00, 0x00, 0x00,
    0x73, 0x65, 0x71, 0x75, 0x65, 0x6e, 0x74, 0x69, 0x61, 0x6c, 0x2f, 0x64, 0x65,
    0x6e, 0x73, 0x65, 0x5f, 0x31, 0x2f, 0x42, 0x69, 0x61, 0x73, 0x41, 0x64, 0x64,
    0x2f, 0x52, 0x65, 0x61, 0x64, 0x56, 0x61, 0x72, 0x69, 0x61, 0x62, 0x6c, 0x65,
    0x4f, 0x70, 0x00, 0x00, 0x00, 0x01, 0x00, 0x00, 0x00, 0x10, 0x00, 0x00, 0x00,
    0x00, 0x00, 0x16, 0x00, 0x1c, 0x00, 0x18, 0x00, 0x00, 0x00, 0x14, 0x00, 0x10,
    0x00, 0x0c, 0x00, 0x00, 0x00, 0x00, 0x00, 0x08, 0x00, 0x07, 0x00, 0x16, 0x00,
    0x00, 0x00, 0x00, 0x00, 0x00, 0x01, 0x14, 0x00, 0x00, 0x00, 0x20, 0x00, 0x00,
    0x00, 0x20, 0x00, 0x00, 0x00, 0x01, 0x00, 0x00, 0x00, 0x3c, 0x00, 0x00, 0x00,
    0x02, 0x00, 0x00, 0x00, 0xff, 0xff, 0xff, 0xff, 0x01, 0x00, 0x00, 0x00, 0x04,
    0x00, 0x04, 0x00, 0x04, 0x00, 0x00, 0x00, 0x1d, 0x00, 0x00, 0x00, 0x73, 0x65,
    0x72, 0x76, 0x69, 0x6e, 0x67, 0x5f, 0x64, 0x65, 0x66, 0x61, 0x75, 0x6c, 0x74,
    0x5f, 0x64, 0x65, 0x6e, 0x73, 0x65, 0x5f, 0x69, 0x6e, 0x70, 0x75, 0x74, 0x3a,
    0x30, 0x00, 0x00, 0x00, 0x02, 0x00, 0x00, 0x00, 0x01, 0x00, 0x00, 0x00, 0x01,
    0x00, 0x00, 0x00, 0x01, 0x00, 0x00, 0x00, 0x10, 0x00, 0x00, 0x00, 0x0c, 0x00,
    0x0c, 0x00, 0x0b, 0x00, 0x00, 0x00, 0x00, 0x00, 0x04, 0x00, 0x0c, 0x00, 0x00,
    0x00, 0x09, 0x00, 0x00, 0x00, 0x00, 0x00, 0x00, 0x09,
};
const int cosine_model_len = 3168;
